00010000010010110011100110101001
11101111011111001100000110100010
00000001000101011100011000101010
11110000010111100011110111111100
00101100010101110011111101000111
00101111111101101000110101101100
00000001010100100001110011110001
00010110011110010101110001100111
11100000000110010010011011001000
00000101110110101000100100011000
11101000110001101001101001010000
00011101100101110101001000101000
00000000110100010111001111010100
00100110001001010000101111100110
00011000011100101001110101010110
11100110100010001111100010110001
11111010110010100101011001101100
11111011111101100100101001000110
11111010101101111101010011001010
11101101110010001000000101101000
00001101101011001010001100011011
11111101000011000011001111110011
00000011001001010001110000001100
11110001111111001011111000110001
00001111110000101011110011001011
00001010000000111100011100010011
00010010111111001111101000110100
10111100101000001010101000010010
00101101010010001101001101110010
11010110010010000000010111101011
11111011010010011000110101111000
00100010000010010101100010111101
10111000011001000001111001101000
11011000011101010000011110101001
00001100100010011010001011010100
11011111001111011010000011110010
00001100110001101001111000000010
00100011010001100100001011001100
10111000110011110011101101011101
11111100101100100111000101101010
11100111110000100101010011100100
11100110010000100001010100111001
00110011000000100010101110011010
00010001001100100010000001011010
11100101110101001101000110101100
00000100001011111001110010101011
11011101111100111110100010010100
11100001001100110011100110111100
00011110100110101001101100010110
00011101101011101100110100111100
