01101000011100001000010100100000
10110101100110001010110010100000
01000010100011110101100100100000
01010101100110101111011110000000
11011111111110010011001110011000
11101001110110101000100001101000
00110011001001110110000001111000
11110010100000000111110111001000
00001100100000011101100100001000
10011011010000011101000001100000
01110111110111101011010101000000
11000110000111001010011101101000
01110000111101001011110111101000
01110111011010100100101011110000
10111010010110100100100110001000
11010111001000010100011000000000
11000000001000001110111011011000
01110010001011000000010010100000
10010010110000111000001110111000
01011111100110111011111111100000
11111000001100100100010101110000
11010100100111000010010111101000
01100000010111001110101001100000
10010010011101011110111001010000
10101011111101100000110101110000
10010100100101111010101010111000
01100100101000000000001110001000
00101000011010000010101100111000
01000100110011001100101001001000
10110110110010110000111100100000
01111001000100011110110001101000
11110001001100010111010101010000
11100110010011110000010001111000
00010101100000110010010001011000
10011101100010100100011110000000
01001101111101011000000001011000
01111010010000001001110100101000
01000010111000000011000100111000
11101001101001011011101000000000
00100001011011011001011110001000
00101100110001101101100101110000
00100000111001011110010010100000
01100001110110011000100101000000
00111111111110110100000011111000
10101100000100000100011000100000
10000111101110011010100100011000
00101100101001001011101010110000
10100001110001001111110000011000
11110010000010101000111111111000
10011101011101011000111010100000
01010100010000101110110100001000
11111010111001010110010011010000
01101100101111001110101100000000
10010001100100000000000110111000
10100100100111010110111000001000
11010000101001000111000001111000
01011101111100100000011111111000
01010100100111100001001111001000
00011110110010011000000001100000
01100000100100000001100100000000
10000100000001110101000111111000
00101000001000100100110011100000
10110110001100110000101110000000
00011001111011100111101101111000
11110110000010111010110101011000
00110111000001100110101111000000
10100001101001111000111000000000
11111100000000111110100001000000
00110011011001011100001111101000
11011111010101000110100101011000
10000100111001001000100110000000
01001100111010011100110001111000
01010000010101000101101011100000
11011001011000101110101001101000
11100000000101110111011101010000
00111011110011010001101000100000
10011010000111000001111101011000
00011100100101011011011011101000
01101100010110010001111001010000
11010100011111101111010110001000
01001110010000010011100101100000
00011010110110011001001011110000
01000000100010000111011101010000
00010000010111111101100110101000
11100010000110110010011001111000
11001010001011111001000001010000
01010110111000101101001000001000
11000110111000100101011101110000
00100010010111000011001011010000
00001111000101100000000110101000
00011001001010000000100111101000
01100011111001010111010011000000
00010110000000100110010010000000
11001000101101101001001110010000
00011110010111001101110010101000
11001100101101000100010001000000
01101010100011101010101110010000
00100110010101101010100110110000
00001100110001100001010010100000
10100000000101110010101001111000
